#include "zxc_model.h"
alignas(16) const unsigned char model_tflite[] = {
  0x1c, 0x00, 0x00, 0x00, 0x54, 0x46, 0x4c, 0x33, 0x14, 0x00, 0x20, 0x00,
  0x1c, 0x00, 0x18, 0x00, 0x14, 0x00, 0x10, 0x00, 0x0c, 0x00, 0x00, 0x00,
  0x08, 0x00, 0x04, 0x00, 0x14, 0x00, 0x00, 0x00, 0x1c, 0x00, 0x00, 0x00,
  0x1c, 0x00, 0x00, 0x00, 0x74, 0x00, 0x00, 0x00, 0xac, 0x04, 0x00, 0x00,
  0xbc, 0x04, 0x00, 0x00, 0xdc, 0x0c, 0x00, 0x00, 0x03, 0x00, 0x00, 0x00,
  0x00, 0x00, 0x00, 0x00, 0x02, 0x00, 0x00, 0x00, 0x34, 0x00, 0x00, 0x00,
  0x04, 0x00, 0x00, 0x00, 0xdc, 0xff, 0xff, 0xff, 0x11, 0x00, 0x00, 0x00,
  0x04, 0x00, 0x00, 0x00, 0x13, 0x00, 0x00, 0x00, 0x43, 0x4f, 0x4e, 0x56,
  0x45, 0x52, 0x53, 0x49, 0x4f, 0x4e, 0x5f, 0x4d, 0x45, 0x54, 0x41, 0x44,
  0x41, 0x54, 0x41, 0x00, 0x08, 0x00, 0x0c, 0x00, 0x08, 0x00, 0x04, 0x00,
  0x08, 0x00, 0x00, 0x00, 0x10, 0x00, 0x00, 0x00, 0x04, 0x00, 0x00, 0x00,
  0x13, 0x00, 0x00, 0x00, 0x6d, 0x69, 0x6e, 0x5f, 0x72, 0x75, 0x6e, 0x74,
  0x69, 0x6d, 0x65, 0x5f, 0x76, 0x65, 0x72, 0x73, 0x69, 0x6f, 0x6e, 0x00,
  0x12, 0x00, 0x00, 0x00, 0x34, 0x04, 0x00, 0x00, 0x2c, 0x04, 0x00, 0x00,
  0x18, 0x04, 0x00, 0x00, 0xe8, 0x03, 0x00, 0x00, 0xb8, 0x02, 0x00, 0x00,
  0x88, 0x01, 0x00, 0x00, 0x60, 0x01, 0x00, 0x00, 0x38, 0x01, 0x00, 0x00,
  0xf8, 0x00, 0x00, 0x00, 0xd0, 0x00, 0x00, 0x00, 0xbc, 0x00, 0x00, 0x00,
  0xb4, 0x00, 0x00, 0x00, 0xac, 0x00, 0x00, 0x00, 0xa4, 0x00, 0x00, 0x00,
  0x9c, 0x00, 0x00, 0x00, 0x94, 0x00, 0x00, 0x00, 0x74, 0x00, 0x00, 0x00,
  0x04, 0x00, 0x00, 0x00, 0x2e, 0xfc, 0xff, 0xff, 0x04, 0x00, 0x00, 0x00,
  0x60, 0x00, 0x00, 0x00, 0x0c, 0x00, 0x00, 0x00, 0x08, 0x00, 0x0e, 0x00,
  0x08, 0x00, 0x04, 0x00, 0x08, 0x00, 0x00, 0x00, 0x14, 0x00, 0x00, 0x00,
  0x30, 0x00, 0x00, 0x00, 0x00, 0x00, 0x0a, 0x00, 0x0c, 0x00, 0x08, 0x00,
  0x00, 0x00, 0x07, 0x00, 0x0a, 0x00, 0x00, 0x00, 0x00, 0x00, 0x00, 0x01,
  0x04, 0x00, 0x00, 0x00, 0x01, 0x00, 0x00, 0x00, 0xea, 0x03, 0x00, 0x00,
  0x00, 0x00, 0x0a, 0x00, 0x10, 0x00, 0x0c, 0x00, 0x08, 0x00, 0x04, 0x00,
  0x0a, 0x00, 0x00, 0x00, 0x03, 0x00, 0x00, 0x00, 0x02, 0x00, 0x00, 0x00,
  0x04, 0x00, 0x00, 0x00, 0x06, 0x00, 0x00, 0x00, 0x32, 0x2e, 0x31, 0x36,
  0x2e, 0x31, 0x00, 0x00, 0x9a, 0xfc, 0xff, 0xff, 0x04, 0x00, 0x00, 0x00,
  0x10, 0x00, 0x00, 0x00, 0x31, 0x2e, 0x35, 0x2e, 0x30, 0x00, 0x00, 0x00,
  0x00, 0x00, 0x00, 0x00, 0x00, 0x00, 0x00, 0x00, 0x7c, 0xf4, 0xff, 0xff,
  0x80, 0xf4, 0xff, 0xff, 0x84, 0xf4, 0xff, 0xff, 0x88, 0xf4, 0xff, 0xff,
  0x8c, 0xf4, 0xff, 0xff, 0xca, 0xfc, 0xff, 0xff, 0x04, 0x00, 0x00, 0x00,
  0x04, 0x00, 0x00, 0x00, 0xe5, 0x97, 0x58, 0xbe, 0xda, 0xfc, 0xff, 0xff,
  0x04, 0x00, 0x00, 0x00, 0x18, 0x00, 0x00, 0x00, 0x48, 0x4a, 0xa8, 0xbe,
  0x81, 0x0d, 0x8c, 0xbe, 0xf7, 0x16, 0x64, 0x3e, 0x98, 0xb2, 0x54, 0x3e,
  0x88, 0xb8, 0x00, 0x3f, 0xd5, 0x1b, 0xa9, 0x3e, 0xfe, 0xfc, 0xff, 0xff,
  0x04, 0x00, 0x00, 0x00, 0x30, 0x00, 0x00, 0x00, 0x3a, 0xb2, 0xaf, 0x3e,
  0x00, 0x00, 0x00, 0x00, 0xc3, 0x2b, 0x20, 0x3e, 0x99, 0x2e, 0xda, 0x3e,
  0x29, 0xc7, 0xcd, 0xbe, 0xa9, 0xdd, 0xa7, 0x3e, 0x8a, 0x90, 0x32, 0x3e,
  0xd9, 0xf6, 0xaa, 0x3e, 0xd2, 0x77, 0x7c, 0x3e, 0xe5, 0x65, 0x1b, 0x3e,
  0xe1, 0x9d, 0xa6, 0xbe, 0x00, 0x00, 0x00, 0x00, 0x3a, 0xfd, 0xff, 0xff,
  0x04, 0x00, 0x00, 0x00, 0x18, 0x00, 0x00, 0x00, 0xe9, 0x19, 0xd5, 0x3e,
  0x5b, 0x50, 0xa0, 0xbe, 0xe2, 0x4a, 0xe5, 0x3e, 0x70, 0xec, 0x0b, 0x3d,
  0x28, 0x05, 0x71, 0x3e, 0x2f, 0xc9, 0x00, 0xbe, 0x5e, 0xfd, 0xff, 0xff,
  0x04, 0x00, 0x00, 0x00, 0x18, 0x00, 0x00, 0x00, 0x2a, 0x78, 0x15, 0xbf,
  0xee, 0x9c, 0x6b, 0x3f, 0xd2, 0x8e, 0x0e, 0x3e, 0x4d, 0x41, 0x4d, 0xbf,
  0xf0, 0xee, 0x7e, 0x3f, 0x2a, 0x52, 0x89, 0x3f, 0x82, 0xfd, 0xff, 0xff,
  0x04, 0x00, 0x00, 0x00, 0x20, 0x01, 0x00, 0x00, 0x22, 0xea, 0x3b, 0x3e,
  0xa5, 0x12, 0x9b, 0xbe, 0x69, 0x18, 0x95, 0x3f, 0xef, 0x29, 0x8e, 0xbe,
  0xff, 0x4d, 0xb7, 0xbd, 0xf2, 0xcc, 0x01, 0x3e, 0x12, 0xcf, 0x82, 0xbe,
  0xf3, 0x7d, 0x95, 0xbe, 0x86, 0x74, 0x19, 0x3e, 0x1a, 0xa8, 0xb9, 0xbe,
  0x50, 0x60, 0x80, 0xbe, 0xb3, 0xa5, 0x93, 0xbc, 0x32, 0x90, 0xdf, 0xbe,
  0x51, 0x83, 0xc1, 0xbe, 0x54, 0xa2, 0xab, 0xbe, 0x48, 0xbf, 0xa2, 0x3e,
  0x3c, 0xaf, 0x1a, 0x3f, 0x26, 0x7d, 0xe2, 0x3d, 0xdc, 0xf7, 0x0f, 0xbe,
  0xd8, 0x54, 0xa4, 0x3e, 0x2a, 0xbf, 0x14, 0x3e, 0xed, 0x2c, 0xa5, 0x3e,
  0xb0, 0x9f, 0xdb, 0x3e, 0x72, 0xf1, 0x62, 0xbe, 0x1b, 0x0e, 0x83, 0xbe,
  0x96, 0x17, 0x99, 0x3e, 0x02, 0xae, 0xfe, 0xbe, 0xc0, 0x3b, 0x36, 0x3f,
  0x0c, 0x7e, 0x0d, 0xbe, 0x85, 0x67, 0xe0, 0x3e, 0x50, 0x6a, 0x84, 0x3e,
  0x72, 0x72, 0x17, 0xbe, 0x1b, 0xe6, 0xb6, 0xbc, 0x80, 0x56, 0x32, 0xbf,
  0x41, 0x0e, 0xc1, 0x3d, 0x0c, 0x12, 0xb0, 0x3e, 0x76, 0x90, 0x33, 0xbd,
  0xe1, 0xe4, 0xc9, 0x3e, 0xb7, 0x71, 0xea, 0x3e, 0x66, 0x03, 0xbb, 0xbe,
  0x0c, 0x01, 0x3d, 0x3f, 0xf2, 0xd5, 0xc2, 0x3e, 0x1c, 0xf3, 0x4c, 0xbd,
  0xd8, 0xe9, 0x8c, 0xbe, 0x78, 0x3b, 0xbb, 0x3e, 0x65, 0x7b, 0x02, 0x3f,
  0xff, 0xe8, 0x91, 0x3e, 0x2e, 0x84, 0x3a, 0xbe, 0x4b, 0x36, 0xf6, 0x3e,
  0xd9, 0x42, 0x9c, 0x3e, 0xf3, 0x85, 0x1c, 0xbe, 0x81, 0x7c, 0x6b, 0x3e,
  0x0b, 0x6e, 0xd3, 0x3e, 0xf4, 0x6f, 0xa9, 0xbe, 0xee, 0x40, 0xba, 0x3e,
  0xbd, 0xe1, 0xbe, 0xbe, 0x90, 0x74, 0xe3, 0xbe, 0x89, 0x2d, 0x43, 0x3f,
  0xb3, 0xbf, 0x2f, 0xbf, 0xd7, 0xf2, 0xf3, 0x3c, 0x3e, 0xe0, 0xbc, 0xbe,
  0xdc, 0x89, 0x08, 0x3f, 0x42, 0x6e, 0x63, 0xbf, 0x40, 0xac, 0xeb, 0xbd,
  0x53, 0x9a, 0xe9, 0x3d, 0xd8, 0x6c, 0x54, 0x3e, 0x1e, 0x9d, 0x93, 0xbe,
  0x4f, 0xe4, 0xd8, 0xbe, 0xd5, 0x47, 0x1f, 0xbd, 0xa1, 0x17, 0x46, 0x3e,
  0x03, 0xea, 0x90, 0xbe, 0x42, 0x42, 0x3f, 0xbe, 0xae, 0xfe, 0xff, 0xff,
  0x04, 0x00, 0x00, 0x00, 0x20, 0x01, 0x00, 0x00, 0xf5, 0x1b, 0x73, 0xbf,
  0x68, 0x13, 0xb2, 0x3e, 0x77, 0x9c, 0x13, 0xbf, 0x7c, 0x0e, 0xe0, 0xbe,
  0x24, 0x63, 0x38, 0x3f, 0x8a, 0xcc, 0xf5, 0x3d, 0x2a, 0x2b, 0xc8, 0xbe,
  0x59, 0x76, 0x12, 0x3e, 0xdc, 0x89, 0x0e, 0x3e, 0xee, 0x16, 0xa5, 0x3e,
  0x8e, 0x8c, 0x68, 0xbe, 0xeb, 0xfd, 0xa0, 0x3e, 0x53, 0xac, 0xca, 0xbe,
  0xa8, 0x48, 0x8c, 0x3e, 0xc7, 0x60, 0x6a, 0x3e, 0xe1, 0x02, 0x77, 0xbe,
  0x07, 0x56, 0x1a, 0x3f, 0x50, 0xae, 0x8a, 0xbe, 0x1e, 0x95, 0xa8, 0x3e,
  0x97, 0x0a, 0x2b, 0xbf, 0xb7, 0x70, 0x6f, 0xbe, 0x5c, 0xca, 0x9d, 0xbe,
  0x0c, 0x0b, 0x76, 0x3e, 0x28, 0x1d, 0xd1, 0xbe, 0x43, 0x2b, 0x06, 0xbd,
  0x42, 0xd4, 0xf0, 0x3d, 0x9d, 0x7b, 0xce, 0x3e, 0xdd, 0x89, 0xbb, 0x3d,
  0x71, 0x66, 0x0f, 0xbf, 0xa3, 0x9b, 0xba, 0x3e, 0xf9, 0xa7, 0x21, 0x3d,
  0xb9, 0xa6, 0x0c, 0x3f, 0xd2, 0x46, 0xfe, 0xbd, 0x57, 0x8e, 0x0a, 0xbf,
  0xc4, 0x20, 0xe1, 0xbe, 0x59, 0x15, 0x82, 0x3e, 0xd1, 0xb8, 0xb2, 0xbd,
  0x41, 0x54, 0x17, 0xbd, 0xc3, 0xb0, 0x0c, 0x3e, 0xa2, 0x46, 0xca, 0x3e,
  0xd6, 0x20, 0x14, 0xbe, 0x70, 0x38, 0xc8, 0x3e, 0x3d, 0x11, 0x9d, 0x3d,
  0x43, 0x26, 0x1e, 0x3c, 0xc8, 0x48, 0x44, 0xbd, 0xab, 0xfe, 0x2b, 0xbe,
  0x79, 0x84, 0x24, 0xbf, 0xa6, 0xa4, 0x1c, 0x3e, 0x80, 0xaf, 0x61, 0x3f,
  0xaa, 0x77, 0x91, 0xbe, 0x58, 0x33, 0x47, 0xbf, 0xdb, 0x27, 0xf3, 0x3d,
  0x99, 0x5f, 0x1f, 0xbf, 0xd4, 0x53, 0xad, 0xbe, 0x80, 0xc8, 0x3c, 0xbf,
  0x44, 0xa5, 0x3a, 0x3f, 0x14, 0x25, 0xce, 0x3e, 0xb6, 0xcb, 0x2e, 0x3f,
  0x4b, 0x9f, 0xd3, 0xbd, 0x75, 0x5b, 0x48, 0xbe, 0x17, 0x9a, 0x98, 0xbc,
  0x79, 0x6c, 0x95, 0xbe, 0xa4, 0xf9, 0x1d, 0xbe, 0x13, 0xb3, 0xa9, 0xbe,
  0x10, 0x91, 0xe8, 0xbe, 0x9d, 0x97, 0x9a, 0x3e, 0x01, 0xb2, 0xe0, 0x3e,
  0x71, 0xa6, 0xbe, 0x3e, 0xfa, 0x27, 0x87, 0x3d, 0x00, 0x00, 0xea, 0xbe,
  0xc1, 0xff, 0x97, 0xbd, 0xa6, 0xf5, 0x78, 0x3d, 0xda, 0xff, 0xff, 0xff,
  0x04, 0x00, 0x00, 0x00, 0x18, 0x00, 0x00, 0x00, 0xfe, 0x50, 0x75, 0x3f,
  0xe9, 0x75, 0x58, 0xbf, 0x13, 0x52, 0xc2, 0x3e, 0x5f, 0x5b, 0x9e, 0x3e,
  0x5a, 0xd1, 0x83, 0xbe, 0xfa, 0x46, 0x91, 0x3e, 0x00, 0x00, 0x06, 0x00,
  0x08, 0x00, 0x04, 0x00, 0x06, 0x00, 0x00, 0x00, 0x04, 0x00, 0x00, 0x00,
  0x04, 0x00, 0x00, 0x00, 0x01, 0x00, 0x00, 0x00, 0xdc, 0xf7, 0xff, 0xff,
  0xe0, 0xf7, 0xff, 0xff, 0x0f, 0x00, 0x00, 0x00, 0x4d, 0x4c, 0x49, 0x52,
  0x20, 0x43, 0x6f, 0x6e, 0x76, 0x65, 0x72, 0x74, 0x65, 0x64, 0x2e, 0x00,
  0x01, 0x00, 0x00, 0x00, 0x14, 0x00, 0x00, 0x00, 0x00, 0x00, 0x0e, 0x00,
  0x18, 0x00, 0x14, 0x00, 0x10, 0x00, 0x0c, 0x00, 0x08, 0x00, 0x04, 0x00,
  0x0e, 0x00, 0x00, 0x00, 0x14, 0x00, 0x00, 0x00, 0x1c, 0x00, 0x00, 0x00,
  0x44, 0x01, 0x00, 0x00, 0x48, 0x01, 0x00, 0x00, 0x4c, 0x01, 0x00, 0x00,
  0x04, 0x00, 0x00, 0x00, 0x6d, 0x61, 0x69, 0x6e, 0x00, 0x00, 0x00, 0x00,
  0x05, 0x00, 0x00, 0x00, 0xec, 0x00, 0x00, 0x00, 0xa4, 0x00, 0x00, 0x00,
  0x6c, 0x00, 0x00, 0x00, 0x38, 0x00, 0x00, 0x00, 0x10, 0x00, 0x00, 0x00,
  0x00, 0x00, 0x0a, 0x00, 0x10, 0x00, 0x0c, 0x00, 0x08, 0x00, 0x04, 0x00,
  0x0a, 0x00, 0x00, 0x00, 0x0c, 0x00, 0x00, 0x00, 0x10, 0x00, 0x00, 0x00,
  0x01, 0x00, 0x00, 0x00, 0x01, 0x00, 0x00, 0x00, 0x0e, 0x00, 0x00, 0x00,
  0x02, 0x00, 0x00, 0x00, 0x0d, 0x00, 0x00, 0x00, 0x01, 0x00, 0x00, 0x00,
  0x66, 0xff, 0xff, 0xff, 0x10, 0x00, 0x00, 0x00, 0x00, 0x00, 0x00, 0x08,
  0x0c, 0x00, 0x00, 0x00, 0x10, 0x00, 0x00, 0x00, 0x90, 0xf8, 0xff, 0xff,
  0x01, 0x00, 0x00, 0x00, 0x0d, 0x00, 0x00, 0x00, 0x03, 0x00, 0x00, 0x00,
  0x0c, 0x00, 0x00, 0x00, 0x02, 0x00, 0x00, 0x00, 0x09, 0x00, 0x00, 0x00,
  0x96, 0xff, 0xff, 0xff, 0x10, 0x00, 0x00, 0x00, 0x00, 0x00, 0x00, 0x08,
  0x10, 0x00, 0x00, 0x00, 0x14, 0x00, 0x00, 0x00, 0x86, 0xff, 0xff, 0xff,
  0x00, 0x00, 0x00, 0x01, 0x01, 0x00, 0x00, 0x00, 0x0c, 0x00, 0x00, 0x00,
  0x03, 0x00, 0x00, 0x00, 0x0b, 0x00, 0x00, 0x00, 0x03, 0x00, 0x00, 0x00,
  0x08, 0x00, 0x00, 0x00, 0xca, 0xff, 0xff, 0xff, 0x10, 0x00, 0x00, 0x00,
  0x00, 0x00, 0x00, 0x08, 0x10, 0x00, 0x00, 0x00, 0x14, 0x00, 0x00, 0x00,
  0xba, 0xff, 0xff, 0xff, 0x00, 0x00, 0x00, 0x01, 0x01, 0x00, 0x00, 0x00,
  0x0b, 0x00, 0x00, 0x00, 0x03, 0x00, 0x00, 0x00, 0x0a, 0x00, 0x00, 0x00,
  0x04, 0x00, 0x00, 0x00, 0x07, 0x00, 0x00, 0x00, 0x00, 0x00, 0x0e, 0x00,
  0x16, 0x00, 0x00, 0x00, 0x10, 0x00, 0x0c, 0x00, 0x0b, 0x00, 0x04, 0x00,
  0x0e, 0x00, 0x00, 0x00, 0x18, 0x00, 0x00, 0x00, 0x00, 0x00, 0x00, 0x08,
  0x18, 0x00, 0x00, 0x00, 0x1c, 0x00, 0x00, 0x00, 0x00, 0x00, 0x06, 0x00,
  0x08, 0x00, 0x07, 0x00, 0x06, 0x00, 0x00, 0x00, 0x00, 0x00, 0x00, 0x01,
  0x01, 0x00, 0x00, 0x00, 0x0a, 0x00, 0x00, 0x00, 0x03, 0x00, 0x00, 0x00,
  0x00, 0x00, 0x00, 0x00, 0x05, 0x00, 0x00, 0x00, 0x06, 0x00, 0x00, 0x00,
  0x01, 0x00, 0x00, 0x00, 0x0e, 0x00, 0x00, 0x00, 0x01, 0x00, 0x00, 0x00,
  0x00, 0x00, 0x00, 0x00, 0x0f, 0x00, 0x00, 0x00, 0x74, 0x06, 0x00, 0x00,
  0x1c, 0x06, 0x00, 0x00, 0xc4, 0x05, 0x00, 0x00, 0x84, 0x05, 0x00, 0x00,
  0x44, 0x05, 0x00, 0x00, 0x04, 0x05, 0x00, 0x00, 0xd0, 0x04, 0x00, 0x00,
  0x9c, 0x04, 0x00, 0x00, 0x68, 0x04, 0x00, 0x00, 0x34, 0x04, 0x00, 0x00,
  0x30, 0x03, 0x00, 0x00, 0x24, 0x02, 0x00, 0x00, 0x18, 0x01, 0x00, 0x00,
  0x3c, 0x00, 0x00, 0x00, 0x04, 0x00, 0x00, 0x00, 0xde, 0xf9, 0xff, 0xff,
  0x00, 0x00, 0x00, 0x01, 0x10, 0x00, 0x00, 0x00, 0x10, 0x00, 0x00, 0x00,
  0x0f, 0x00, 0x00, 0x00, 0x18, 0x00, 0x00, 0x00, 0xc8, 0xf9, 0xff, 0xff,
  0x0a, 0x00, 0x00, 0x00, 0x49, 0x64, 0x65, 0x6e, 0x74, 0x69, 0x74, 0x79,
  0x5f, 0x31, 0x00, 0x00, 0x01, 0x00, 0x00, 0x00, 0x01, 0x00, 0x00, 0x00,
  0x12, 0xfa, 0xff, 0xff, 0x00, 0x00, 0x00, 0x01, 0x10, 0x00, 0x00, 0x00,
  0x10, 0x00, 0x00, 0x00, 0x0e, 0x00, 0x00, 0x00, 0xb8, 0x00, 0x00, 0x00,
  0xfc, 0xf9, 0xff, 0xff, 0xa9, 0x00, 0x00, 0x00, 0x6a, 0x61, 0x78, 0x32,
  0x74, 0x66, 0x5f, 0x70, 0x72, 0x65, 0x64, 0x69, 0x63, 0x74, 0x5f, 0x5f,
  0x2f, 0x73, 0x65, 0x71, 0x75, 0x65, 0x6e, 0x74, 0x69, 0x61, 0x6c, 0x2f,
  0x6c, 0x69, 0x6e, 0x65, 0x61, 0x72, 0x5f, 0x33, 0x2f, 0x70, 0x6a, 0x69,
  0x74, 0x5f, 0x64, 0x6f, 0x74, 0x5f, 0x2f, 0x4d, 0x61, 0x74, 0x4d, 0x75,
  0x6c, 0x3b, 0x6a, 0x61, 0x78, 0x32, 0x74, 0x66, 0x5f, 0x70, 0x72, 0x65,
  0x64, 0x69, 0x63, 0x74, 0x5f, 0x5f, 0x2f, 0x73, 0x65, 0x71, 0x75, 0x65,
  0x6e, 0x74, 0x69, 0x61, 0x6c, 0x2f, 0x6c, 0x69, 0x6e, 0x65, 0x61, 0x72,
  0x5f, 0x33, 0x2f, 0x70, 0x6a, 0x69, 0x74, 0x5f, 0x61, 0x64, 0x64, 0x5f,
  0x2f, 0x41, 0x64, 0x64, 0x56, 0x32, 0x3b, 0x6a, 0x61, 0x78, 0x32, 0x74,
  0x66, 0x5f, 0x70, 0x72, 0x65, 0x64, 0x69, 0x63, 0x74, 0x5f, 0x5f, 0x2f,
  0x73, 0x65, 0x71, 0x75, 0x65, 0x6e, 0x74, 0x69, 0x61, 0x6c, 0x2f, 0x6c,
  0x69, 0x6e, 0x65, 0x61, 0x72, 0x5f, 0x33, 0x2f, 0x70, 0x6a, 0x69, 0x74,
  0x5f, 0x64, 0x6f, 0x74, 0x5f, 0x2f, 0x53, 0x71, 0x75, 0x65, 0x65, 0x7a,
  0x65, 0x3b, 0x43, 0x6f, 0x6e, 0x73, 0x74, 0x5f, 0x37, 0x00, 0x00, 0x00,
  0x02, 0x00, 0x00, 0x00, 0x01, 0x00, 0x00, 0x00, 0x01, 0x00, 0x00, 0x00,
  0xea, 0xfa, 0xff, 0xff, 0x00, 0x00, 0x00, 0x01, 0x10, 0x00, 0x00, 0x00,
  0x10, 0x00, 0x00, 0x00, 0x0d, 0x00, 0x00, 0x00, 0xe8, 0x00, 0x00, 0x00,
  0xd4, 0xfa, 0xff, 0xff, 0xda, 0x00, 0x00, 0x00, 0x6a, 0x61, 0x78, 0x32,
  0x74, 0x66, 0x5f, 0x70, 0x72, 0x65, 0x64, 0x69, 0x63, 0x74, 0x5f, 0x5f,
  0x2f, 0x73, 0x65, 0x71, 0x75, 0x65, 0x6e, 0x74, 0x69, 0x61, 0x6c, 0x2f,
  0x6c, 0x69, 0x6e, 0x65, 0x61, 0x72, 0x5f, 0x32, 0x2f, 0x70, 0x6a, 0x69,
  0x74, 0x5f, 0x64, 0x6f, 0x74, 0x5f, 0x2f, 0x4d, 0x61, 0x74, 0x4d, 0x75,
  0x6c, 0x3b, 0x6a, 0x61, 0x78, 0x32, 0x74, 0x66, 0x5f, 0x70, 0x72, 0x65,
  0x64, 0x69, 0x63, 0x74, 0x5f, 0x5f, 0x2f, 0x73, 0x65, 0x71, 0x75, 0x65,
  0x6e, 0x74, 0x69, 0x61, 0x6c, 0x2f, 0x70, 0x6a, 0x69, 0x74, 0x5f, 0x72,
  0x65, 0x6c, 0x75, 0x5f, 0x2f, 0x4d, 0x61, 0x78, 0x69, 0x6d, 0x75, 0x6d,
  0x5f, 0x32, 0x3b, 0x6a, 0x61, 0x78, 0x32, 0x74, 0x66, 0x5f, 0x70, 0x72,
  0x65, 0x64, 0x69, 0x63, 0x74, 0x5f, 0x5f, 0x2f, 0x73, 0x65, 0x71, 0x75,
  0x65, 0x6e, 0x74, 0x69, 0x61, 0x6c, 0x2f, 0x6c, 0x69, 0x6e, 0x65, 0x61,
  0x72, 0x5f, 0x32, 0x2f, 0x70, 0x6a, 0x69, 0x74, 0x5f, 0x61, 0x64, 0x64,
  0x5f, 0x2f, 0x41, 0x64, 0x64, 0x56, 0x32, 0x3b, 0x6a, 0x61, 0x78, 0x32,
  0x74, 0x66, 0x5f, 0x70, 0x72, 0x65, 0x64, 0x69, 0x63, 0x74, 0x5f, 0x5f,
  0x2f, 0x73, 0x65, 0x71, 0x75, 0x65, 0x6e, 0x74, 0x69, 0x61, 0x6c, 0x2f,
  0x6c, 0x69, 0x6e, 0x65, 0x61, 0x72, 0x5f, 0x32, 0x2f, 0x70, 0x6a, 0x69,
  0x74, 0x5f, 0x64, 0x6f, 0x74, 0x5f, 0x2f, 0x53, 0x71, 0x75, 0x65, 0x65,
  0x7a, 0x65, 0x3b, 0x43, 0x6f, 0x6e, 0x73, 0x74, 0x5f, 0x35, 0x00, 0x00,
  0x02, 0x00, 0x00, 0x00, 0x01, 0x00, 0x00, 0x00, 0x06, 0x00, 0x00, 0x00,
  0xf2, 0xfb, 0xff, 0xff, 0x00, 0x00, 0x00, 0x01, 0x10, 0x00, 0x00, 0x00,
  0x10, 0x00, 0x00, 0x00, 0x0c, 0x00, 0x00, 0x00, 0xe8, 0x00, 0x00, 0x00,
  0xdc, 0xfb, 0xff, 0xff, 0xda, 0x00, 0x00, 0x00, 0x6a, 0x61, 0x78, 0x32,
  0x74, 0x66, 0x5f, 0x70, 0x72, 0x65, 0x64, 0x69, 0x63, 0x74, 0x5f, 0x5f,
  0x2f, 0x73, 0x65, 0x71, 0x75, 0x65, 0x6e, 0x74, 0x69, 0x61, 0x6c, 0x2f,
  0x6c, 0x69, 0x6e, 0x65, 0x61, 0x72, 0x5f, 0x31, 0x2f, 0x70, 0x6a, 0x69,
  0x74, 0x5f, 0x64, 0x6f, 0x74, 0x5f, 0x2f, 0x4d, 0x61, 0x74, 0x4d, 0x75,
  0x6c, 0x3b, 0x6a, 0x61, 0x78, 0x32, 0x74, 0x66, 0x5f, 0x70, 0x72, 0x65,
  0x64, 0x69, 0x63, 0x74, 0x5f, 0x5f, 0x2f, 0x73, 0x65, 0x71, 0x75, 0x65,
  0x6e, 0x74, 0x69, 0x61, 0x6c, 0x2f, 0x70, 0x6a, 0x69, 0x74, 0x5f, 0x72,
  0x65, 0x6c, 0x75, 0x5f, 0x2f, 0x4d, 0x61, 0x78, 0x69, 0x6d, 0x75, 0x6d,
  0x5f, 0x31, 0x3b, 0x6a, 0x61, 0x78, 0x32, 0x74, 0x66, 0x5f, 0x70, 0x72,
  0x65, 0x64, 0x69, 0x63, 0x74, 0x5f, 0x5f, 0x2f, 0x73, 0x65, 0x71, 0x75,
  0x65, 0x6e, 0x74, 0x69, 0x61, 0x6c, 0x2f, 0x6c, 0x69, 0x6e, 0x65, 0x61,
  0x72, 0x5f, 0x31, 0x2f, 0x70, 0x6a, 0x69, 0x74, 0x5f, 0x61, 0x64, 0x64,
  0x5f, 0x2f, 0x41, 0x64, 0x64, 0x56, 0x32, 0x3b, 0x6a, 0x61, 0x78, 0x32,
  0x74, 0x66, 0x5f, 0x70, 0x72, 0x65, 0x64, 0x69, 0x63, 0x74, 0x5f, 0x5f,
  0x2f, 0x73, 0x65, 0x71, 0x75, 0x65, 0x6e, 0x74, 0x69, 0x61, 0x6c, 0x2f,
  0x6c, 0x69, 0x6e, 0x65, 0x61, 0x72, 0x5f, 0x31, 0x2f, 0x70, 0x6a, 0x69,
  0x74, 0x5f, 0x64, 0x6f, 0x74, 0x5f, 0x2f, 0x53, 0x71, 0x75, 0x65, 0x65,
  0x7a, 0x65, 0x3b, 0x43, 0x6f, 0x6e, 0x73, 0x74, 0x5f, 0x33, 0x00, 0x00,
  0x02, 0x00, 0x00, 0x00, 0x01, 0x00, 0x00, 0x00, 0x0c, 0x00, 0x00, 0x00,
  0xfa, 0xfc, 0xff, 0xff, 0x00, 0x00, 0x00, 0x01, 0x10, 0x00, 0x00, 0x00,
  0x10, 0x00, 0x00, 0x00, 0x0b, 0x00, 0x00, 0x00, 0xe0, 0x00, 0x00, 0x00,
  0xe4, 0xfc, 0xff, 0xff, 0xd2, 0x00, 0x00, 0x00, 0x6a, 0x61, 0x78, 0x32,
  0x74, 0x66, 0x5f, 0x70, 0x72, 0x65, 0x64, 0x69, 0x63, 0x74, 0x5f, 0x5f,
  0x2f, 0x73, 0x65, 0x71, 0x75, 0x65, 0x6e, 0x74, 0x69, 0x61, 0x6c, 0x2f,
  0x6c, 0x69, 0x6e, 0x65, 0x61, 0x72, 0x2f, 0x70, 0x6a, 0x69, 0x74, 0x5f,
  0x64, 0x6f, 0x74, 0x5f, 0x2f, 0x4d, 0x61, 0x74, 0x4d, 0x75, 0x6c, 0x3b,
  0x6a, 0x61, 0x78, 0x32, 0x74, 0x66, 0x5f, 0x70, 0x72, 0x65, 0x64, 0x69,
  0x63, 0x74, 0x5f, 0x5f, 0x2f, 0x73, 0x65, 0x71, 0x75, 0x65, 0x6e, 0x74,
  0x69, 0x61, 0x6c, 0x2f, 0x70, 0x6a, 0x69, 0x74, 0x5f, 0x72, 0x65, 0x6c,
  0x75, 0x5f, 0x2f, 0x4d, 0x61, 0x78, 0x69, 0x6d, 0x75, 0x6d, 0x3b, 0x6a,
  0x61, 0x78, 0x32, 0x74, 0x66, 0x5f, 0x70, 0x72, 0x65, 0x64, 0x69, 0x63,
  0x74, 0x5f, 0x5f, 0x2f, 0x73, 0x65, 0x71, 0x75, 0x65, 0x6e, 0x74, 0x69,
  0x61, 0x6c, 0x2f, 0x6c, 0x69, 0x6e, 0x65, 0x61, 0x72, 0x2f, 0x70, 0x6a,
  0x69, 0x74, 0x5f, 0x61, 0x64, 0x64, 0x5f, 0x2f, 0x41, 0x64, 0x64, 0x56,
  0x32, 0x3b, 0x6a, 0x61, 0x78, 0x32, 0x74, 0x66, 0x5f, 0x70, 0x72, 0x65,
  0x64, 0x69, 0x63, 0x74, 0x5f, 0x5f, 0x2f, 0x73, 0x65, 0x71, 0x75, 0x65,
  0x6e, 0x74, 0x69, 0x61, 0x6c, 0x2f, 0x6c, 0x69, 0x6e, 0x65, 0x61, 0x72,
  0x2f, 0x70, 0x6a, 0x69, 0x74, 0x5f, 0x64, 0x6f, 0x74, 0x5f, 0x2f, 0x53,
  0x71, 0x75, 0x65, 0x65, 0x7a, 0x65, 0x3b, 0x43, 0x6f, 0x6e, 0x73, 0x74,
  0x5f, 0x31, 0x00, 0x00, 0x02, 0x00, 0x00, 0x00, 0x01, 0x00, 0x00, 0x00,
  0x06, 0x00, 0x00, 0x00, 0xfa, 0xfd, 0xff, 0xff, 0x00, 0x00, 0x00, 0x01,
  0x10, 0x00, 0x00, 0x00, 0x10, 0x00, 0x00, 0x00, 0x0a, 0x00, 0x00, 0x00,
  0x14, 0x00, 0x00, 0x00, 0xe4, 0xfd, 0xff, 0xff, 0x07, 0x00, 0x00, 0x00,
  0x43, 0x6f, 0x6e, 0x73, 0x74, 0x5f, 0x37, 0x00, 0x01, 0x00, 0x00, 0x00,
  0x01, 0x00, 0x00, 0x00, 0x2a, 0xfe, 0xff, 0xff, 0x00, 0x00, 0x00, 0x01,
  0x10, 0x00, 0x00, 0x00, 0x10, 0x00, 0x00, 0x00, 0x09, 0x00, 0x00, 0x00,
  0x14, 0x00, 0x00, 0x00, 0x14, 0xfe, 0xff, 0xff, 0x07, 0x00, 0x00, 0x00,
  0x43, 0x6f, 0x6e, 0x73, 0x74, 0x5f, 0x35, 0x00, 0x01, 0x00, 0x00, 0x00,
  0x06, 0x00, 0x00, 0x00, 0x5a, 0xfe, 0xff, 0xff, 0x00, 0x00, 0x00, 0x01,
  0x10, 0x00, 0x00, 0x00, 0x10, 0x00, 0x00, 0x00, 0x08, 0x00, 0x00, 0x00,
  0x14, 0x00, 0x00, 0x00, 0x44, 0xfe, 0xff, 0xff, 0x07, 0x00, 0x00, 0x00,
  0x43, 0x6f, 0x6e, 0x73, 0x74, 0x5f, 0x33, 0x00, 0x01, 0x00, 0x00, 0x00,
  0x0c, 0x00, 0x00, 0x00, 0x8a, 0xfe, 0xff, 0xff, 0x00, 0x00, 0x00, 0x01,
  0x10, 0x00, 0x00, 0x00, 0x10, 0x00, 0x00, 0x00, 0x07, 0x00, 0x00, 0x00,
  0x14, 0x00, 0x00, 0x00, 0x74, 0xfe, 0xff, 0xff, 0x07, 0x00, 0x00, 0x00,
  0x43, 0x6f, 0x6e, 0x73, 0x74, 0x5f, 0x31, 0x00, 0x01, 0x00, 0x00, 0x00,
  0x06, 0x00, 0x00, 0x00, 0xba, 0xfe, 0xff, 0xff, 0x00, 0x00, 0x00, 0x01,
  0x10, 0x00, 0x00, 0x00, 0x10, 0x00, 0x00, 0x00, 0x06, 0x00, 0x00, 0x00,
  0x1c, 0x00, 0x00, 0x00, 0xa4, 0xfe, 0xff, 0xff, 0x0f, 0x00, 0x00, 0x00,
  0x61, 0x72, 0x69, 0x74, 0x68, 0x2e, 0x63, 0x6f, 0x6e, 0x73, 0x74, 0x61,
  0x6e, 0x74, 0x34, 0x00, 0x02, 0x00, 0x00, 0x00, 0x06, 0x00, 0x00, 0x00,
  0x01, 0x00, 0x00, 0x00, 0xf6, 0xfe, 0xff, 0xff, 0x00, 0x00, 0x00, 0x01,
  0x10, 0x00, 0x00, 0x00, 0x10, 0x00, 0x00, 0x00, 0x05, 0x00, 0x00, 0x00,
  0x1c, 0x00, 0x00, 0x00, 0xe0, 0xfe, 0xff, 0xff, 0x0f, 0x00, 0x00, 0x00,
  0x61, 0x72, 0x69, 0x74, 0x68, 0x2e, 0x63, 0x6f, 0x6e, 0x73, 0x74, 0x61,
  0x6e, 0x74, 0x33, 0x00, 0x02, 0x00, 0x00, 0x00, 0x0c, 0x00, 0x00, 0x00,
  0x06, 0x00, 0x00, 0x00, 0x32, 0xff, 0xff, 0xff, 0x00, 0x00, 0x00, 0x01,
  0x10, 0x00, 0x00, 0x00, 0x10, 0x00, 0x00, 0x00, 0x04, 0x00, 0x00, 0x00,
  0x1c, 0x00, 0x00, 0x00, 0x1c, 0xff, 0xff, 0xff, 0x0f, 0x00, 0x00, 0x00,
  0x61, 0x72, 0x69, 0x74, 0x68, 0x2e, 0x63, 0x6f, 0x6e, 0x73, 0x74, 0x61,
  0x6e, 0x74, 0x32, 0x00, 0x02, 0x00, 0x00, 0x00, 0x06, 0x00, 0x00, 0x00,
  0x0c, 0x00, 0x00, 0x00, 0x6e, 0xff, 0xff, 0xff, 0x00, 0x00, 0x00, 0x01,
  0x10, 0x00, 0x00, 0x00, 0x10, 0x00, 0x00, 0x00, 0x03, 0x00, 0x00, 0x00,
  0x1c, 0x00, 0x00, 0x00, 0x58, 0xff, 0xff, 0xff, 0x0f, 0x00, 0x00, 0x00,
  0x61, 0x72, 0x69, 0x74, 0x68, 0x2e, 0x63, 0x6f, 0x6e, 0x73, 0x74, 0x61,
  0x6e, 0x74, 0x31, 0x00, 0x02, 0x00, 0x00, 0x00, 0x01, 0x00, 0x00, 0x00,
  0x06, 0x00, 0x00, 0x00, 0x00, 0x00, 0x16, 0x00, 0x1c, 0x00, 0x18, 0x00,
  0x17, 0x00, 0x10, 0x00, 0x0c, 0x00, 0x08, 0x00, 0x00, 0x00, 0x00, 0x00,
  0x00, 0x00, 0x07, 0x00, 0x16, 0x00, 0x00, 0x00, 0x00, 0x00, 0x00, 0x01,
  0x14, 0x00, 0x00, 0x00, 0x14, 0x00, 0x00, 0x00, 0x02, 0x00, 0x00, 0x00,
  0x00, 0x00, 0x00, 0x02, 0x1c, 0x00, 0x00, 0x00, 0xb0, 0xff, 0xff, 0xff,
  0x0e, 0x00, 0x00, 0x00, 0x61, 0x72, 0x69, 0x74, 0x68, 0x2e, 0x63, 0x6f,
  0x6e, 0x73, 0x74, 0x61, 0x6e, 0x74, 0x00, 0x00, 0x01, 0x00, 0x00, 0x00,
  0x01, 0x00, 0x00, 0x00, 0x00, 0x00, 0x16, 0x00, 0x18, 0x00, 0x14, 0x00,
  0x00, 0x00, 0x10, 0x00, 0x0c, 0x00, 0x08, 0x00, 0x00, 0x00, 0x00, 0x00,
  0x00, 0x00, 0x07, 0x00, 0x16, 0x00, 0x00, 0x00, 0x00, 0x00, 0x00, 0x01,
  0x14, 0x00, 0x00, 0x00, 0x14, 0x00, 0x00, 0x00, 0x01, 0x00, 0x00, 0x00,
  0x18, 0x00, 0x00, 0x00, 0x04, 0x00, 0x04, 0x00, 0x04, 0x00, 0x00, 0x00,
  0x05, 0x00, 0x00, 0x00, 0x69, 0x6e, 0x70, 0x75, 0x74, 0x00, 0x00, 0x00,
  0x01, 0x00, 0x00, 0x00, 0x01, 0x00, 0x00, 0x00, 0x02, 0x00, 0x00, 0x00,
  0x20, 0x00, 0x00, 0x00, 0x04, 0x00, 0x00, 0x00, 0xf4, 0xff, 0xff, 0xff,
  0x16, 0x00, 0x00, 0x00, 0x00, 0x00, 0x00, 0x16, 0x0c, 0x00, 0x0c, 0x00,
  0x0b, 0x00, 0x00, 0x00, 0x00, 0x00, 0x04, 0x00, 0x0c, 0x00, 0x00, 0x00,
  0x09, 0x00, 0x00, 0x00, 0x00, 0x00, 0x00, 0x09
};

